f6 fa 00 c3 fe 11 f6 d0 07 ff f9 0d 0f 00 dd d7 f4 1d e5 e7 05 08 f1 dd 03 1e bd df 19 31 0e 5c f8 0f 1a ba 2b ee 21 01 0b fa 69 af 08 18 fd fb
14 02 0d 43 f3 1d d3 44 f5 02 2c f2 f2 1e f5 08 00 00 2b 57 03 dc 15 20 ec e9 ef 20 de c0 0e 77 0d b5 ee 00 f3 b7 05 c2 df 23 01 24 f3 e1 07 09
e4 f4 fd 1f 00 14 51 ed 07 dc e9 eb fa f5 f7 0c 32 d3 f4 00 0b 15 f8 fc 1a e7 db ec fd 09 47 ec 0e 06 ed 6e 17 ef 33 10 26 2a cd f0 03 23 01 fd
f7 05 ed d7 34 fc 1f fd f5 ec 28 eb 05 ea 02 ec 46 00 d0 0d 02 00 01 e9 08 03 19 2d fe 1e b0 fa 0d 17 27 00 f8 f4 df d9 26 47 c8 35 03 fa 02 0c
fe f6 01 0d f1 11 0b 1e d6 0e 01 49 f5 13 f9 12 9e ea 14 08 0d d9 fe 0b 01 0b f5 fd de 1c e8 2c ef 8a 0b fc 13 f1 db dd 05 99 13 32 0b d8 f7 f8
f3 d9 f9 ef f4 f1 08 f3 d7 40 0e e8 09 e8 0b 1d 1b 16 1f 1d 0f 1f 06 fe 12 f6 08 f8 18 9f ef da ea 6e 4a e1 03 2b d7 36 16 51 f9 d7 04 0e f9 fd
fa c9 f7 c7 f8 8a f0 d8 ff e8 05 f7 13 0c 01 ff fb 3a 04 b4 01 eb 01 e0 f4 33 27 fb 1b a9 4b 36 ea 2e fd fd 05 07 f0 21 09 ba fd f7 02 09 10 ea
f4 07 00 13 07 87 d3 1a 41 f0 e7 00 0e 1c f2 e9 01 9a df 39 f0 12 11 ec 28 ff d2 f9 ca 2d d8 19 36 e0 bd 02 42 38 2f fd e6 c2 24 03 fb 04 0c f7
19 18 13 37 ef f2 21 f5 ec 1d e3 00 f8 f0 02 06 23 13 ff c5 10 18 0f 16 e6 e9 0c 02 29 3b 3d d6 04 0b cc fc df e6 f3 e2 19 15 dc 09 fa f8 01 11
0f 46 12 f4 fb 8e d3 00 1a ee 0e f2 00 01 ef 0c d2 07 14 0c 12 10 00 08 f0 fc 39 cf 19 39 d7 1e 07 f9 16 be da 23 cb 33 d7 fd f5 1d f2 16 01 fb
